unsigned char flood_prediction_model_quantized_tflite[] = {
  0x1c, 0x00, 0x00, 0x00, 0x54, 0x46, 0x4c, 0x33, 0x14, 0x00, 0x20, 0x00,
  0x1c, 0x00, 0x18, 0x00, 0x14, 0x00, 0x10, 0x00, 0x0c, 0x00, 0x00, 0x00,
  0x08, 0x00, 0x04, 0x00, 0x14, 0x00, 0x00, 0x00, 0x1c, 0x00, 0x00, 0x00,
  0x84, 0x00, 0x00, 0x00, 0xdc, 0x00, 0x00, 0x00, 0x00, 0x05, 0x00, 0x00,
  0x10, 0x05, 0x00, 0x00, 0xb0, 0x0a, 0x00, 0x00, 0x03, 0x00, 0x00, 0x00,
  0x01, 0x00, 0x00, 0x00, 0x04, 0x00, 0x00, 0x00, 0xb2, 0xfa, 0xff, 0xff,
  0x0c, 0x00, 0x00, 0x00, 0x1c, 0x00, 0x00, 0x00, 0x38, 0x00, 0x00, 0x00,
  0x0f, 0x00, 0x00, 0x00, 0x73, 0x65, 0x72, 0x76, 0x69, 0x6e, 0x67, 0x5f,
  0x64, 0x65, 0x66, 0x61, 0x75, 0x6c, 0x74, 0x00, 0x01, 0x00, 0x00, 0x00,
  0x04, 0x00, 0x00, 0x00, 0x98, 0xff, 0xff, 0xff, 0x0a, 0x00, 0x00, 0x00,
  0x04, 0x00, 0x00, 0x00, 0x07, 0x00, 0x00, 0x00, 0x64, 0x65, 0x6e, 0x73,
  0x65, 0x5f, 0x32, 0x00, 0x01, 0x00, 0x00, 0x00, 0x04, 0x00, 0x00, 0x00,
  0x9e, 0xfb, 0xff, 0xff, 0x04, 0x00, 0x00, 0x00, 0x0b, 0x00, 0x00, 0x00,
  0x64, 0x65, 0x6e, 0x73, 0x65, 0x5f, 0x69, 0x6e, 0x70, 0x75, 0x74, 0x00,
  0x02, 0x00, 0x00, 0x00, 0x34, 0x00, 0x00, 0x00, 0x04, 0x00, 0x00, 0x00,
  0xdc, 0xff, 0xff, 0xff, 0x0d, 0x00, 0x00, 0x00, 0x04, 0x00, 0x00, 0x00,
  0x13, 0x00, 0x00, 0x00, 0x43, 0x4f, 0x4e, 0x56, 0x45, 0x52, 0x53, 0x49,
  0x4f, 0x4e, 0x5f, 0x4d, 0x45, 0x54, 0x41, 0x44, 0x41, 0x54, 0x41, 0x00,
  0x08, 0x00, 0x0c, 0x00, 0x08, 0x00, 0x04, 0x00, 0x08, 0x00, 0x00, 0x00,
  0x0c, 0x00, 0x00, 0x00, 0x04, 0x00, 0x00, 0x00, 0x13, 0x00, 0x00, 0x00,
  0x6d, 0x69, 0x6e, 0x5f, 0x72, 0x75, 0x6e, 0x74, 0x69, 0x6d, 0x65, 0x5f,
  0x76, 0x65, 0x72, 0x73, 0x69, 0x6f, 0x6e, 0x00, 0x0e, 0x00, 0x00, 0x00,
  0x20, 0x04, 0x00, 0x00, 0x18, 0x04, 0x00, 0x00, 0xe8, 0x03, 0x00, 0x00,
  0xcc, 0x03, 0x00, 0x00, 0x7c, 0x03, 0x00, 0x00, 0xec, 0x02, 0x00, 0x00,
  0xdc, 0x00, 0x00, 0x00, 0xac, 0x00, 0x00, 0x00, 0xa4, 0x00, 0x00, 0x00,
  0x9c, 0x00, 0x00, 0x00, 0x94, 0x00, 0x00, 0x00, 0x8c, 0x00, 0x00, 0x00,
  0x6c, 0x00, 0x00, 0x00, 0x04, 0x00, 0x00, 0x00, 0x4e, 0xfc, 0xff, 0xff,
  0x04, 0x00, 0x00, 0x00, 0x58, 0x00, 0x00, 0x00, 0x0c, 0x00, 0x00, 0x00,
  0x08, 0x00, 0x0e, 0x00, 0x08, 0x00, 0x04, 0x00, 0x08, 0x00, 0x00, 0x00,
  0x10, 0x00, 0x00, 0x00, 0x28, 0x00, 0x00, 0x00, 0x00, 0x00, 0x06, 0x00,
  0x08, 0x00, 0x04, 0x00, 0x06, 0x00, 0x00, 0x00, 0x04, 0x00, 0x00, 0x00,
  0x01, 0x00, 0x00, 0x00, 0xea, 0x03, 0x00, 0x00, 0x00, 0x00, 0x0a, 0x00,
  0x10, 0x00, 0x0c, 0x00, 0x08, 0x00, 0x04, 0x00, 0x0a, 0x00, 0x00, 0x00,
  0x02, 0x00, 0x00, 0x00, 0x02, 0x00, 0x00, 0x00, 0x04, 0x00, 0x00, 0x00,
  0x06, 0x00, 0x00, 0x00, 0x32, 0x2e, 0x31, 0x30, 0x2e, 0x31, 0x00, 0x00,
  0xb2, 0xfc, 0xff, 0xff, 0x04, 0x00, 0x00, 0x00, 0x10, 0x00, 0x00, 0x00,
  0x31, 0x2e, 0x31, 0x34, 0x2e, 0x30, 0x00, 0x00, 0x00, 0x00, 0x00, 0x00,
  0x00, 0x00, 0x00, 0x00, 0x14, 0xf7, 0xff, 0xff, 0x18, 0xf7, 0xff, 0xff,
  0x1c, 0xf7, 0xff, 0xff, 0x20, 0xf7, 0xff, 0xff, 0xde, 0xfc, 0xff, 0xff,
  0x04, 0x00, 0x00, 0x00, 0x20, 0x00, 0x00, 0x00, 0x21, 0x72, 0x6e, 0x3e,
  0xf4, 0xd8, 0x77, 0x3e, 0x43, 0x52, 0x2b, 0xbf, 0xdc, 0x2e, 0xf0, 0xbe,
  0xa4, 0x46, 0x1c, 0x3d, 0xc6, 0xa4, 0x44, 0x3f, 0x15, 0xb2, 0x26, 0x3d,
  0xf5, 0xa5, 0x2a, 0x3f, 0x0a, 0xfd, 0xff, 0xff, 0x04, 0x00, 0x00, 0x00,
  0x00, 0x02, 0x00, 0x00, 0xac, 0x30, 0xe4, 0xbe, 0xdc, 0x10, 0x98, 0x3e,
  0x08, 0xbc, 0x51, 0x3e, 0x2d, 0x7b, 0xbd, 0x3d, 0xf3, 0x8c, 0xc1, 0xbe,
  0xdd, 0x5e, 0x83, 0xbe, 0x6d, 0x11, 0x0f, 0x3e, 0xf1, 0x79, 0x9b, 0xbe,
  0xf9, 0xa7, 0xcb, 0xbe, 0xa0, 0x6a, 0x89, 0x3e, 0xc0, 0xa0, 0x2d, 0xbd,
  0xd7, 0x9a, 0xe0, 0x3e, 0x59, 0x32, 0xd8, 0xbe, 0x25, 0xca, 0x49, 0x3e,
  0x84, 0x1c, 0x0b, 0x3d, 0xa6, 0x2d, 0x57, 0xbf, 0x64, 0xac, 0xb2, 0xbe,
  0x8a, 0xc8, 0xcc, 0x3e, 0xc8, 0x36, 0x3b, 0x3e, 0x58, 0xb3, 0x51, 0xbf,
  0x03, 0xad, 0x81, 0x3e, 0x56, 0xcc, 0xd9, 0xbd, 0x06, 0x38, 0x81, 0x3e,
  0xae, 0x47, 0x5f, 0xbe, 0x08, 0x2f, 0xb0, 0xbc, 0x60, 0x69, 0xd9, 0x3d,
  0xe0, 0x14, 0xa4, 0x3d, 0xbc, 0x3a, 0xf1, 0x3d, 0x4a, 0xf0, 0xd9, 0xbe,
  0x19, 0x18, 0x8e, 0xbe, 0x7a, 0x11, 0x9e, 0x3d, 0x83, 0x43, 0x15, 0xbe,
  0x04, 0x25, 0xa8, 0xbe, 0x1a, 0xf4, 0x29, 0xbd, 0xc8, 0x90, 0x4d, 0x3e,
  0x93, 0x0c, 0x44, 0x3f, 0x81, 0x65, 0x05, 0x3d, 0x5b, 0xbc, 0x0c, 0x3e,
  0x2e, 0xac, 0x7b, 0x3e, 0x11, 0x0a, 0xa4, 0xbc, 0xe4, 0xad, 0x2c, 0x3e,
  0x80, 0x58, 0xec, 0xbd, 0xe4, 0xed, 0xc8, 0x3e, 0x8b, 0x20, 0xc7, 0xbe,
  0x40, 0xd4, 0xd1, 0x3e, 0x23, 0x0b, 0x8b, 0x3d, 0xf3, 0x23, 0x7f, 0x3e,
  0x1e, 0xd7, 0x2b, 0x3f, 0x60, 0x23, 0x4e, 0xbd, 0x99, 0x1e, 0x4a, 0xbe,
  0xc4, 0x78, 0xa2, 0xbe, 0x0b, 0x96, 0x4b, 0x3f, 0xd1, 0xb8, 0xb2, 0x3e,
  0xfa, 0x0c, 0xd2, 0xbe, 0x94, 0x71, 0xb1, 0x3e, 0x1d, 0x58, 0x81, 0x3d,
  0x3a, 0x75, 0x1a, 0x3e, 0x20, 0x50, 0x60, 0x3e, 0x80, 0x41, 0x85, 0xbd,
  0x9d, 0x86, 0x89, 0x3e, 0xb4, 0xcd, 0x91, 0x3d, 0xa3, 0x73, 0xc2, 0xbd,
  0x00, 0x41, 0xcc, 0xbe, 0x04, 0x8c, 0x57, 0x3f, 0x00, 0xd1, 0xee, 0x3d,
  0x44, 0x33, 0xdc, 0xbe, 0x00, 0xb3, 0xd4, 0xbe, 0xde, 0x01, 0x3d, 0xbe,
  0xf8, 0xac, 0x24, 0x3e, 0x75, 0x38, 0x1e, 0xbe, 0x29, 0x29, 0x26, 0xbe,
  0x80, 0x0d, 0x39, 0x3d, 0xd0, 0x07, 0xcc, 0xbe, 0x40, 0xf2, 0xc2, 0x3e,
  0xdc, 0x1b, 0x81, 0xbe, 0xe5, 0x00, 0x90, 0xbe, 0x6a, 0x68, 0x88, 0x3e,
  0xc6, 0x19, 0x82, 0x3d, 0x77, 0x8e, 0xa9, 0x3e, 0xc1, 0x8e, 0xf6, 0xbc,
  0xec, 0x7f, 0xd7, 0xbe, 0x00, 0xfa, 0xd3, 0xbc, 0x40, 0xe0, 0x36, 0xbe,
  0x8f, 0xeb, 0x95, 0xbb, 0x13, 0x8b, 0xd9, 0xbe, 0x91, 0xff, 0x29, 0x3e,
  0xa8, 0x24, 0x98, 0x3d, 0x54, 0x4b, 0xab, 0x3e, 0x90, 0xf0, 0xe1, 0xbd,
  0xb8, 0xd6, 0x62, 0x3e, 0x08, 0xb1, 0x2a, 0xbe, 0xb9, 0x72, 0x98, 0xbe,
  0x63, 0x7f, 0xce, 0x3e, 0x2c, 0x81, 0x9e, 0x3e, 0xd6, 0x61, 0xbd, 0x3e,
  0xd8, 0x44, 0x8f, 0x3d, 0xcc, 0x43, 0xdb, 0xbe, 0x7a, 0xe2, 0x75, 0xbd,
  0x88, 0x11, 0x57, 0xbe, 0xf2, 0xe2, 0x86, 0x3c, 0x77, 0x30, 0x64, 0xbe,
  0x76, 0x20, 0xc2, 0x3e, 0x3c, 0x4c, 0x1b, 0x3e, 0xcc, 0x09, 0xc8, 0x3e,
  0x44, 0xcc, 0x72, 0x3e, 0x64, 0xdc, 0xf1, 0xbe, 0x58, 0x39, 0x08, 0x3e,
  0x74, 0x61, 0x84, 0xbd, 0x27, 0xfd, 0x16, 0x3e, 0xb8, 0x95, 0x27, 0xbe,
  0xba, 0x52, 0xd4, 0x3d, 0x28, 0x1d, 0x35, 0xbf, 0x00, 0x26, 0xd5, 0xbc,
  0x7e, 0xeb, 0x24, 0xbe, 0x24, 0x89, 0xf0, 0x3e, 0x04, 0x8c, 0xa1, 0xbe,
  0xdb, 0x61, 0x1f, 0x3d, 0x65, 0x8b, 0x5c, 0x3e, 0xb1, 0xef, 0x23, 0xbe,
  0x3a, 0xa7, 0xe5, 0xbe, 0x67, 0x50, 0xa7, 0x3e, 0x9c, 0x23, 0xff, 0x3e,
  0x80, 0x1f, 0x16, 0x3d, 0x28, 0x5b, 0xfd, 0xbc, 0x78, 0x5e, 0xcd, 0x3e,
  0xdf, 0x7b, 0x33, 0xbd, 0x85, 0x4a, 0xe4, 0xbe, 0xfc, 0x80, 0x63, 0x3e,
  0x16, 0xff, 0xff, 0xff, 0x04, 0x00, 0x00, 0x00, 0x80, 0x00, 0x00, 0x00,
  0xf7, 0x9c, 0xf8, 0xbe, 0x8f, 0x13, 0x99, 0xbe, 0x1c, 0xd7, 0xaa, 0x3e,
  0xb0, 0xad, 0xd3, 0xbe, 0x58, 0x2d, 0xb6, 0xbd, 0x40, 0x3c, 0x0c, 0xbc,
  0xf7, 0x28, 0xcf, 0xbc, 0xe6, 0x62, 0xc9, 0x3e, 0x8f, 0xb9, 0xc7, 0x3e,
  0x90, 0xc0, 0x00, 0x3e, 0xa8, 0x43, 0x01, 0x3f, 0x85, 0xfa, 0x9b, 0xbd,
  0x4e, 0x80, 0xcf, 0x3e, 0x66, 0xe1, 0x44, 0x3d, 0xff, 0x99, 0x0c, 0x3e,
  0x3f, 0x34, 0x1d, 0xbf, 0x2e, 0xb3, 0x04, 0x3e, 0xa8, 0x55, 0x0a, 0xbf,
  0x08, 0x32, 0xcd, 0xbe, 0x80, 0xcf, 0xf2, 0xbc, 0x38, 0x7e, 0xc6, 0xbe,
  0xdc, 0x20, 0x55, 0xbe, 0x69, 0xf6, 0xf2, 0x3e, 0xc2, 0xf7, 0xb7, 0x3e,
  0x4e, 0x96, 0xf1, 0xbe, 0xf0, 0x24, 0x1e, 0x3f, 0xaa, 0xec, 0x12, 0x3e,
  0x8d, 0x96, 0x75, 0x3e, 0xc1, 0xf2, 0x00, 0xbf, 0x40, 0x0a, 0x02, 0x3f,
  0xe9, 0x2d, 0xec, 0xbc, 0x29, 0xc5, 0x00, 0x3f, 0xa2, 0xff, 0xff, 0xff,
  0x04, 0x00, 0x00, 0x00, 0x40, 0x00, 0x00, 0x00, 0x00, 0x00, 0x00, 0x00,
  0xcd, 0xf5, 0x35, 0xbe, 0x00, 0x00, 0x00, 0x00, 0x87, 0xcb, 0xb2, 0x3e,
  0x3b, 0x0d, 0x3a, 0x3e, 0xdf, 0x09, 0x09, 0xbe, 0x9c, 0xb5, 0x33, 0x3e,
  0x39, 0x00, 0xd3, 0x3d, 0xa5, 0x9c, 0xc1, 0x3d, 0x00, 0x00, 0x00, 0x00,
  0x00, 0x00, 0x00, 0x00, 0xe8, 0x1a, 0xa0, 0xbd, 0x38, 0x36, 0x84, 0x3d,
  0x60, 0x04, 0xf3, 0xbc, 0xa0, 0x77, 0x0e, 0xbd, 0xb8, 0xc5, 0xcf, 0x3e,
  0xee, 0xff, 0xff, 0xff, 0x04, 0x00, 0x00, 0x00, 0x04, 0x00, 0x00, 0x00,
  0xa8, 0xd2, 0x25, 0xbe, 0x00, 0x00, 0x06, 0x00, 0x08, 0x00, 0x04, 0x00,
  0x06, 0x00, 0x00, 0x00, 0x04, 0x00, 0x00, 0x00, 0x20, 0x00, 0x00, 0x00,
  0xc3, 0x4f, 0x1a, 0xbe, 0x72, 0x61, 0x1a, 0xbe, 0xe4, 0xe4, 0x4a, 0x3e,
  0x69, 0x5b, 0x4a, 0x3e, 0x6b, 0xbe, 0xad, 0xbc, 0x41, 0x55, 0x05, 0xbd,
  0x95, 0xbd, 0xed, 0xbd, 0x1f, 0x68, 0x17, 0xbd, 0x78, 0xfa, 0xff, 0xff,
  0x7c, 0xfa, 0xff, 0xff, 0x0f, 0x00, 0x00, 0x00, 0x4d, 0x4c, 0x49, 0x52,
  0x20, 0x43, 0x6f, 0x6e, 0x76, 0x65, 0x72, 0x74, 0x65, 0x64, 0x2e, 0x00,
  0x01, 0x00, 0x00, 0x00, 0x14, 0x00, 0x00, 0x00, 0x00, 0x00, 0x0e, 0x00,
  0x18, 0x00, 0x14, 0x00, 0x10, 0x00, 0x0c, 0x00, 0x08, 0x00, 0x04, 0x00,
  0x0e, 0x00, 0x00, 0x00, 0x14, 0x00, 0x00, 0x00, 0x1c, 0x00, 0x00, 0x00,
  0x08, 0x01, 0x00, 0x00, 0x0c, 0x01, 0x00, 0x00, 0x10, 0x01, 0x00, 0x00,
  0x04, 0x00, 0x00, 0x00, 0x6d, 0x61, 0x69, 0x6e, 0x00, 0x00, 0x00, 0x00,
  0x04, 0x00, 0x00, 0x00, 0xb0, 0x00, 0x00, 0x00, 0x68, 0x00, 0x00, 0x00,
  0x34, 0x00, 0x00, 0x00, 0x10, 0x00, 0x00, 0x00, 0x00, 0x00, 0x0a, 0x00,
  0x10, 0x00, 0x0c, 0x00, 0x08, 0x00, 0x04, 0x00, 0x0a, 0x00, 0x00, 0x00,
  0x0c, 0x00, 0x00, 0x00, 0x10, 0x00, 0x00, 0x00, 0x01, 0x00, 0x00, 0x00,
  0x01, 0x00, 0x00, 0x00, 0x0a, 0x00, 0x00, 0x00, 0x01, 0x00, 0x00, 0x00,
  0x09, 0x00, 0x00, 0x00, 0x9a, 0xff, 0xff, 0xff, 0x10, 0x00, 0x00, 0x00,
  0x00, 0x00, 0x00, 0x08, 0x0c, 0x00, 0x00, 0x00, 0x10, 0x00, 0x00, 0x00,
  0x24, 0xfb, 0xff, 0xff, 0x01, 0x00, 0x00, 0x00, 0x09, 0x00, 0x00, 0x00,
  0x03, 0x00, 0x00, 0x00, 0x08, 0x00, 0x00, 0x00, 0x06, 0x00, 0x00, 0x00,
  0x02, 0x00, 0x00, 0x00, 0xca, 0xff, 0xff, 0xff, 0x10, 0x00, 0x00, 0x00,
  0x00, 0x00, 0x00, 0x08, 0x10, 0x00, 0x00, 0x00, 0x14, 0x00, 0x00, 0x00,
  0xba, 0xff, 0xff, 0xff, 0x00, 0x00, 0x00, 0x01, 0x01, 0x00, 0x00, 0x00,
  0x08, 0x00, 0x00, 0x00, 0x03, 0x00, 0x00, 0x00, 0x07, 0x00, 0x00, 0x00,
  0x05, 0x00, 0x00, 0x00, 0x01, 0x00, 0x00, 0x00, 0x00, 0x00, 0x0e, 0x00,
  0x16, 0x00, 0x00, 0x00, 0x10, 0x00, 0x0c, 0x00, 0x0b, 0x00, 0x04, 0x00,
  0x0e, 0x00, 0x00, 0x00, 0x18, 0x00, 0x00, 0x00, 0x00, 0x00, 0x00, 0x08,
  0x18, 0x00, 0x00, 0x00, 0x1c, 0x00, 0x00, 0x00, 0x00, 0x00, 0x06, 0x00,
  0x08, 0x00, 0x07, 0x00, 0x06, 0x00, 0x00, 0x00, 0x00, 0x00, 0x00, 0x01,
  0x01, 0x00, 0x00, 0x00, 0x07, 0x00, 0x00, 0x00, 0x03, 0x00, 0x00, 0x00,
  0x00, 0x00, 0x00, 0x00, 0x04, 0x00, 0x00, 0x00, 0x03, 0x00, 0x00, 0x00,
  0x01, 0x00, 0x00, 0x00, 0x0a, 0x00, 0x00, 0x00, 0x01, 0x00, 0x00, 0x00,
  0x00, 0x00, 0x00, 0x00, 0x0b, 0x00, 0x00, 0x00, 0x04, 0x04, 0x00, 0x00,
  0x94, 0x03, 0x00, 0x00, 0x24, 0x03, 0x00, 0x00, 0xd0, 0x02, 0x00, 0x00,
  0x88, 0x02, 0x00, 0x00, 0x3c, 0x02, 0x00, 0x00, 0xf0, 0x01, 0x00, 0x00,
  0x68, 0x01, 0x00, 0x00, 0xd8, 0x00, 0x00, 0x00, 0x60, 0x00, 0x00, 0x00,
  0x04, 0x00, 0x00, 0x00, 0x3e, 0xfc, 0xff, 0xff, 0x00, 0x00, 0x00, 0x01,
  0x14, 0x00, 0x00, 0x00, 0x1c, 0x00, 0x00, 0x00, 0x1c, 0x00, 0x00, 0x00,
  0x0b, 0x00, 0x00, 0x00, 0x34, 0x00, 0x00, 0x00, 0x02, 0x00, 0x00, 0x00,
  0xff, 0xff, 0xff, 0xff, 0x01, 0x00, 0x00, 0x00, 0x28, 0xfc, 0xff, 0xff,
  0x19, 0x00, 0x00, 0x00, 0x53, 0x74, 0x61, 0x74, 0x65, 0x66, 0x75, 0x6c,
  0x50, 0x61, 0x72, 0x74, 0x69, 0x74, 0x69, 0x6f, 0x6e, 0x65, 0x64, 0x43,
  0x61, 0x6c, 0x6c, 0x3a, 0x30, 0x00, 0x00, 0x00, 0x02, 0x00, 0x00, 0x00,
  0x01, 0x00, 0x00, 0x00, 0x01, 0x00, 0x00, 0x00, 0x96, 0xfc, 0xff, 0xff,
  0x00, 0x00, 0x00, 0x01, 0x14, 0x00, 0x00, 0x00, 0x1c, 0x00, 0x00, 0x00,
  0x1c, 0x00, 0x00, 0x00, 0x0a, 0x00, 0x00, 0x00, 0x50, 0x00, 0x00, 0x00,
  0x02, 0x00, 0x00, 0x00, 0xff, 0xff, 0xff, 0xff, 0x01, 0x00, 0x00, 0x00,
  0x80, 0xfc, 0xff, 0xff, 0x34, 0x00, 0x00, 0x00, 0x73, 0x65, 0x71, 0x75,
  0x65, 0x6e, 0x74, 0x69, 0x61, 0x6c, 0x2f, 0x64, 0x65, 0x6e, 0x73, 0x65,
  0x5f, 0x32, 0x2f, 0x4d, 0x61, 0x74, 0x4d, 0x75, 0x6c, 0x3b, 0x73, 0x65,
  0x71, 0x75, 0x65, 0x6e, 0x74, 0x69, 0x61, 0x6c, 0x2f, 0x64, 0x65, 0x6e,
  0x73, 0x65, 0x5f, 0x32, 0x2f, 0x42, 0x69, 0x61, 0x73, 0x41, 0x64, 0x64,
  0x00, 0x00, 0x00, 0x00, 0x02, 0x00, 0x00, 0x00, 0x01, 0x00, 0x00, 0x00,
  0x01, 0x00, 0x00, 0x00, 0x0a, 0xfd, 0xff, 0xff, 0x00, 0x00, 0x00, 0x01,
  0x14, 0x00, 0x00, 0x00, 0x1c, 0x00, 0x00, 0x00, 0x1c, 0x00, 0x00, 0x00,
  0x09, 0x00, 0x00, 0x00, 0x68, 0x00, 0x00, 0x00, 0x02, 0x00, 0x00, 0x00,
  0xff, 0xff, 0xff, 0xff, 0x08, 0x00, 0x00, 0x00, 0xf4, 0xfc, 0xff, 0xff,
  0x4c, 0x00, 0x00, 0x00, 0x73, 0x65, 0x71, 0x75, 0x65, 0x6e, 0x74, 0x69,
  0x61, 0x6c, 0x2f, 0x64, 0x65, 0x6e, 0x73, 0x65, 0x5f, 0x31, 0x2f, 0x4d,
  0x61, 0x74, 0x4d, 0x75, 0x6c, 0x3b, 0x73, 0x65, 0x71, 0x75, 0x65, 0x6e,
  0x74, 0x69, 0x61, 0x6c, 0x2f, 0x64, 0x65, 0x6e, 0x73, 0x65, 0x5f, 0x31,
  0x2f, 0x52, 0x65, 0x6c, 0x75, 0x3b, 0x73, 0x65, 0x71, 0x75, 0x65, 0x6e,
  0x74, 0x69, 0x61, 0x6c, 0x2f, 0x64, 0x65, 0x6e, 0x73, 0x65, 0x5f, 0x31,
  0x2f, 0x42, 0x69, 0x61, 0x73, 0x41, 0x64, 0x64, 0x00, 0x00, 0x00, 0x00,
  0x02, 0x00, 0x00, 0x00, 0x01, 0x00, 0x00, 0x00, 0x08, 0x00, 0x00, 0x00,
  0x96, 0xfd, 0xff, 0xff, 0x00, 0x00, 0x00, 0x01, 0x14, 0x00, 0x00, 0x00,
  0x1c, 0x00, 0x00, 0x00, 0x1c, 0x00, 0x00, 0x00, 0x08, 0x00, 0x00, 0x00,
  0x60, 0x00, 0x00, 0x00, 0x02, 0x00, 0x00, 0x00, 0xff, 0xff, 0xff, 0xff,
  0x10, 0x00, 0x00, 0x00, 0x80, 0xfd, 0xff, 0xff, 0x46, 0x00, 0x00, 0x00,
  0x73, 0x65, 0x71, 0x75, 0x65, 0x6e, 0x74, 0x69, 0x61, 0x6c, 0x2f, 0x64,
  0x65, 0x6e, 0x73, 0x65, 0x2f, 0x4d, 0x61, 0x74, 0x4d, 0x75, 0x6c, 0x3b,
  0x73, 0x65, 0x71, 0x75, 0x65, 0x6e, 0x74, 0x69, 0x61, 0x6c, 0x2f, 0x64,
  0x65, 0x6e, 0x73, 0x65, 0x2f, 0x52, 0x65, 0x6c, 0x75, 0x3b, 0x73, 0x65,
  0x71, 0x75, 0x65, 0x6e, 0x74, 0x69, 0x61, 0x6c, 0x2f, 0x64, 0x65, 0x6e,
  0x73, 0x65, 0x2f, 0x42, 0x69, 0x61, 0x73, 0x41, 0x64, 0x64, 0x00, 0x00,
  0x02, 0x00, 0x00, 0x00, 0x01, 0x00, 0x00, 0x00, 0x10, 0x00, 0x00, 0x00,
  0x86, 0xfe, 0xff, 0xff, 0x00, 0x00, 0x00, 0x01, 0x10, 0x00, 0x00, 0x00,
  0x10, 0x00, 0x00, 0x00, 0x07, 0x00, 0x00, 0x00, 0x28, 0x00, 0x00, 0x00,
  0xf4, 0xfd, 0xff, 0xff, 0x19, 0x00, 0x00, 0x00, 0x73, 0x65, 0x71, 0x75,
  0x65, 0x6e, 0x74, 0x69, 0x61, 0x6c, 0x2f, 0x64, 0x65, 0x6e, 0x73, 0x65,
  0x5f, 0x32, 0x2f, 0x4d, 0x61, 0x74, 0x4d, 0x75, 0x6c, 0x00, 0x00, 0x00,
  0x02, 0x00, 0x00, 0x00, 0x01, 0x00, 0x00, 0x00, 0x08, 0x00, 0x00, 0x00,
  0xce, 0xfe, 0xff, 0xff, 0x00, 0x00, 0x00, 0x01, 0x10, 0x00, 0x00, 0x00,
  0x10, 0x00, 0x00, 0x00, 0x06, 0x00, 0x00, 0x00, 0x28, 0x00, 0x00, 0x00,
  0x3c, 0xfe, 0xff, 0xff, 0x19, 0x00, 0x00, 0x00, 0x73, 0x65, 0x71, 0x75,
  0x65, 0x6e, 0x74, 0x69, 0x61, 0x6c, 0x2f, 0x64, 0x65, 0x6e, 0x73, 0x65,
  0x5f, 0x31, 0x2f, 0x4d, 0x61, 0x74, 0x4d, 0x75, 0x6c, 0x00, 0x00, 0x00,
  0x02, 0x00, 0x00, 0x00, 0x08, 0x00, 0x00, 0x00, 0x10, 0x00, 0x00, 0x00,
  0x16, 0xff, 0xff, 0xff, 0x00, 0x00, 0x00, 0x01, 0x10, 0x00, 0x00, 0x00,
  0x10, 0x00, 0x00, 0x00, 0x05, 0x00, 0x00, 0x00, 0x24, 0x00, 0x00, 0x00,
  0x84, 0xfe, 0xff, 0xff, 0x17, 0x00, 0x00, 0x00, 0x73, 0x65, 0x71, 0x75,
  0x65, 0x6e, 0x74, 0x69, 0x61, 0x6c, 0x2f, 0x64, 0x65, 0x6e, 0x73, 0x65,
  0x2f, 0x4d, 0x61, 0x74, 0x4d, 0x75, 0x6c, 0x00, 0x02, 0x00, 0x00, 0x00,
  0x10, 0x00, 0x00, 0x00, 0x02, 0x00, 0x00, 0x00, 0x5a, 0xff, 0xff, 0xff,
  0x00, 0x00, 0x00, 0x01, 0x10, 0x00, 0x00, 0x00, 0x10, 0x00, 0x00, 0x00,
  0x04, 0x00, 0x00, 0x00, 0x34, 0x00, 0x00, 0x00, 0xc8, 0xfe, 0xff, 0xff,
  0x27, 0x00, 0x00, 0x00, 0x73, 0x65, 0x71, 0x75, 0x65, 0x6e, 0x74, 0x69,
  0x61, 0x6c, 0x2f, 0x64, 0x65, 0x6e, 0x73, 0x65, 0x2f, 0x42, 0x69, 0x61,
  0x73, 0x41, 0x64, 0x64, 0x2f, 0x52, 0x65, 0x61, 0x64, 0x56, 0x61, 0x72,
  0x69, 0x61, 0x62, 0x6c, 0x65, 0x4f, 0x70, 0x00, 0x01, 0x00, 0x00, 0x00,
  0x10, 0x00, 0x00, 0x00, 0xaa, 0xff, 0xff, 0xff, 0x00, 0x00, 0x00, 0x01,
  0x10, 0x00, 0x00, 0x00, 0x10, 0x00, 0x00, 0x00, 0x03, 0x00, 0x00, 0x00,
  0x38, 0x00, 0x00, 0x00, 0x18, 0xff, 0xff, 0xff, 0x29, 0x00, 0x00, 0x00,
  0x73, 0x65, 0x71, 0x75, 0x65, 0x6e, 0x74, 0x69, 0x61, 0x6c, 0x2f, 0x64,
  0x65, 0x6e, 0x73, 0x65, 0x5f, 0x32, 0x2f, 0x42, 0x69, 0x61, 0x73, 0x41,
  0x64, 0x64, 0x2f, 0x52, 0x65, 0x61, 0x64, 0x56, 0x61, 0x72, 0x69, 0x61,
  0x62, 0x6c, 0x65, 0x4f, 0x70, 0x00, 0x00, 0x00, 0x01, 0x00, 0x00, 0x00,
  0x01, 0x00, 0x00, 0x00, 0x00, 0x00, 0x16, 0x00, 0x18, 0x00, 0x14, 0x00,
  0x00, 0x00, 0x10, 0x00, 0x0c, 0x00, 0x08, 0x00, 0x00, 0x00, 0x00, 0x00,
  0x00, 0x00, 0x07, 0x00, 0x16, 0x00, 0x00, 0x00, 0x00, 0x00, 0x00, 0x01,
  0x10, 0x00, 0x00, 0x00, 0x10, 0x00, 0x00, 0x00, 0x02, 0x00, 0x00, 0x00,
  0x38, 0x00, 0x00, 0x00, 0x84, 0xff, 0xff, 0xff, 0x29, 0x00, 0x00, 0x00,
  0x73, 0x65, 0x71, 0x75, 0x65, 0x6e, 0x74, 0x69, 0x61, 0x6c, 0x2f, 0x64,
  0x65, 0x6e, 0x73, 0x65, 0x5f, 0x31, 0x2f, 0x42, 0x69, 0x61, 0x73, 0x41,
  0x64, 0x64, 0x2f, 0x52, 0x65, 0x61, 0x64, 0x56, 0x61, 0x72, 0x69, 0x61,
  0x62, 0x6c, 0x65, 0x4f, 0x70, 0x00, 0x00, 0x00, 0x01, 0x00, 0x00, 0x00,
  0x08, 0x00, 0x00, 0x00, 0x00, 0x00, 0x16, 0x00, 0x1c, 0x00, 0x18, 0x00,
  0x00, 0x00, 0x14, 0x00, 0x10, 0x00, 0x0c, 0x00, 0x00, 0x00, 0x00, 0x00,
  0x08, 0x00, 0x07, 0x00, 0x16, 0x00, 0x00, 0x00, 0x00, 0x00, 0x00, 0x01,
  0x14, 0x00, 0x00, 0x00, 0x20, 0x00, 0x00, 0x00, 0x20, 0x00, 0x00, 0x00,
  0x01, 0x00, 0x00, 0x00, 0x3c, 0x00, 0x00, 0x00, 0x02, 0x00, 0x00, 0x00,
  0xff, 0xff, 0xff, 0xff, 0x02, 0x00, 0x00, 0x00, 0x04, 0x00, 0x04, 0x00,
  0x04, 0x00, 0x00, 0x00, 0x1d, 0x00, 0x00, 0x00, 0x73, 0x65, 0x72, 0x76,
  0x69, 0x6e, 0x67, 0x5f, 0x64, 0x65, 0x66, 0x61, 0x75, 0x6c, 0x74, 0x5f,
  0x64, 0x65, 0x6e, 0x73, 0x65, 0x5f, 0x69, 0x6e, 0x70, 0x75, 0x74, 0x3a,
  0x30, 0x00, 0x00, 0x00, 0x02, 0x00, 0x00, 0x00, 0x01, 0x00, 0x00, 0x00,
  0x02, 0x00, 0x00, 0x00, 0x02, 0x00, 0x00, 0x00, 0x20, 0x00, 0x00, 0x00,
  0x04, 0x00, 0x00, 0x00, 0xf4, 0xff, 0xff, 0xff, 0x0e, 0x00, 0x00, 0x00,
  0x00, 0x00, 0x00, 0x0e, 0x0c, 0x00, 0x0c, 0x00, 0x0b, 0x00, 0x00, 0x00,
  0x00, 0x00, 0x04, 0x00, 0x0c, 0x00, 0x00, 0x00, 0x09, 0x00, 0x00, 0x00,
  0x00, 0x00, 0x00, 0x09
};
unsigned int flood_prediction_model_quantized_tflite_len = 2836;
